e3c91ee2
1f2f1c33
4d2e1a00
fb4c684d
43374c66
dae539eb
a12dcbc8
e4b293d4
b9aee6a2
09251306
f5171c22
d8b4edeb
e114c4cd
fdcb2714
cae2e8fe
6706c0c4
48591059
f5196256
ff07f7b4
f7efefcc
f4ee0ed8
05e8082a
040145eb
f014390b
fceed9fa
0a18dcec
fbf013c5
c1b2d4eb
c6b9c181
1e0945e3
3f5e5c33
13040d49
0e160ef0
f7fbdf0f
fcd5b0df
fcfef1d8
b7152b08
e4dcf7eb
071646f0
11f62442
5246cf24
40694ecb
4d1c1453
6757226c
e31deffe
37454800
1d420840
e406cb1a
a696f4ba
075a9ed2
5a746117
d4297024
dae8cc1e
10fcf2e8
18525138
0c462e67
ace427fb
c0b9c4d1
ff2ea3a3
252a1935
ee3a6661
61405d4b
13502315
27f6ffdf
18e70d36
2e454412
3a1c480d
19072226
05736f13
f9385e40
e1201cf3
0ffbe1f9
1c05d4fd
f508fff3
dd0822b5
f8da2c45
eef10807
04d612f0
3fee2fd2
7f4bf546
0c1d3228
ceecf6d3
95ebbb9c
ef08d0c0
f7fb14fa
cca1f3c3
afcfc81b
24d0f6f6
bb0ee3fd
de0e25dd
f0fde3e8
e1e201f5
2426f8fc
d8d2ee27
5922cbc8
487c5932
ca287f08
e0da02c7
240cd4e8
15f1fbe3
16ebefed
e9e30533
fbd0f6a9
e712d3cc
0aea1bed
170a33eb
011ec7ee
ff0623f6
c5bcf7c2
81f907bf
532e6bd4
5258472e
d54b347e
1510e7fa
0a40e4f1
ea060602
e1f5ccd0
0907f2cc
f50cf2d2
17111232
f51d1936
1c3829fb
2b7f5411
1d1c3a59
11f912d8
dd36f525
46174057
733b3b7f
3e713811
1d75783b
f3580d07
f0424df7
c3de3603
e324ebe1
2cec1abf
cfedb2c3
fdcde2a7
5e05f231
f21d7f3d
fe160241
edff1ff9
e82e3ae5
391728f9
23503e17
d2d8f51e
a9e3b8c7
20cbc9fa
18071102
0e181224
210ceb6b
67ed0b21
0e574b34
00190222
1b1bfdcb
d406ddb7
f1c0170a
d5d10f09
19ddfe10
06fb0b27
e5301af0
f9bb12bf
0df7cc07
2d1a2428
221a3467
cbdbfc10
f3f9c2c3
300700de
f8284243
e0461b0d
d6f71fda
1aee1be7
8ecbb1a1
a6ca9989
f3d70303
fad2b2f2
b9d4d5d1
c5b3def5
d6ee13c3
dfcd1ad9
27e9e0e6
f11a1a22
24f2ee12
0128f6de
3cf15c5d
0a281537
34ef151e
dce1d9e6
d3f5feed
e9ce0623
09ede018
321ffc03
f81004c4
0e1a15f1
fd06e816
48521032
1a272e23
1c17ec0c
e94d2e1f
cecdc715
c4edd8dc
596b4bc9
075e5065
aeff2e3a
bad2e294
afc2bad7
9a9a9e12
c2a1f6fa
f0bed3f4
9be891e0
0b4101c2
41261436
042f23ed
f3131c0a
24d516fe
350b2101
cb041fec
840ecca5
e20bf6c2
e3eee2e1
fee905f6
330fe6fa
3c55fbf9
5307070e
3c38023a
59001f24
7538743e
3938747f
cf17fa24
361827dc
f622d120
35ecfbdf
bf26ebe6
c58fe8c9
f8cd09d4
1d0812df
f526f40c
250defdf
db3409c9
b9be0bff
e9b8bcc4
372bfafb
6a414058
1e643120
7029500c
3e60356a
1ad9e52d
09fd04d4
2eeafb1a
134b4126
15311a2a
3e3c3e2c
053cf313
f9d29e03
0eb9acf0
163802ce
2f3b39f4
d8ce23ee
e1ab9e18
f0f6c3c9
aefadad5
c60eedc0
dae10510
301b1a34
08365b28
01433157
d2b416f4
ecffe109
27eee200
4f510730
f116412c
cfe9c1fe
fdda0ee8
181937f0
e240c4da
582926e6
124045ff
17e01b3d
c5eab5db
2b2dd5fd
122f05d0
cffd0206
f01737c4
0a013d32
0f240a2b
06ce13d0
141412fa
3d0cf92a
514ae044
415d4339
6857416c
c297cc3d
aec791b3
fde2b3bb
c5cbca06
1abed2cf
1509220a
e70e110d
eeddaad2
c8d2a4d8
cfaed2c5
cab88ed7
cdc481ab
dfe7e200
d3d50d11
df1f01ef
f4def2e6
f1390e16
1af33912
0903fd13
38deec01
3eebefe3
e9f1031e
ddeedffd
d0bbad30
bd18f3f5
ca1af4cc
17f01328
efea0417
ffe21fc1
fef3ef12
0d151cec
311c1804
f321d1c2
dc08d7df
f1eacaf1
f5f9dae5
f8090ade
18e1f307
12011afa
1707171e
fb1c2817
eae5fcf2
fff8fcec
24233a10
1c121620
373315fe
2f284835
43373746
166a291e
e817400f
e3fd18d8
06050514
e5ff0be1
fdfcd6db
dafcf8f0
28030119
2200c802
0117fa06
0bb5ccd9
fae9d101
dddbf7e7
fc110cfd
f72e0902
27e5e003
e919f981
d80113ff
e40c2384
2216f6fc
0015c9f4
ebec08f7
1b1a1e3b
2f61373d
112c1202
4df71f26
c4ab3703
9591cfce
ce81a1b4
bec9efd3
ddd2c4d0
d70725fb
c5220adb
1438200c
3504323a
26143658
350f27f3
24152131
47193436
1241321d
041b30c6
161a203a
ecf3e228
e7001efa
d9fb0dfe
05ec03eb
23fafa10
1f0b2dda
fce14201
30f94935
1514fe0c
141409e9
3716e245
00f6f5e9
09e60d2d
15e91400
0b022b31
291ae524
03eafeef
f60c000e
0b1fd7fd
fdecf8f8
1dffe6fa
25fd1110
98252425
81b9958b
9084bd9b
03f8eff3
fd22ea1b
eb1bf0ef
dd0717f3
ddd0eb09
d3afd8be
f2d7dee3
d4c1f6e8
e8c5d5ef
060e0304
210f1624
fbf800f9
18160502
f9060922
f9f20005
fbfa080e
07e80ffa
ee08dc1a
16001336
08eb0027
fb05fa01
0ef714cc
06d30113
ea081ddb
1706f403
fd3c2b0c
f801d5fb
bddfb8cb
b0d3ac83
285efbe6
62092922
f1bb4866
f6cbcbf5
e1e103fc
0f00ebec
0a0710ee
bddae805
de0f04d6
a6a8c6de
aab38bc0
664bd2ac
3f5e4018
c6335953
9681c4b3
9ea2adb3
f50212d5
1c0a0b18
ecfef4e9
05061707
fe100009
07fc0602
fefff410
22202ae7
e20b05fe
04062d09
0adc030e
fb00081a
fff6edd7
14eceaec
fff61c02
07ec00fc
f5f622e6
0a04cbc9
ee0530fd
020d1f05
bf8fb131
b3b69dd3
6a33b4d0
627f542a
3a424e33
5a414535
373d3056
ede5f0d0
e4b9c5e0
210a32e1
1f003610
00fa0e3a
45312e35
01314615
2c080b17
0b0312fe
ffdc16ed
dd0ffedf
150113dd
f80502ee
0cf1fa14
da0fe3d6
e115e1f9
dbced929
fa31e12d
01fed1ed
f9e6ee00
c20d27fd
e5fde418
f70925fc
1efefbe4
00fdfa18
c002eadd
26fbcef6
e507e604
ef0f0a23
33602af1
41366e54
270c282a
24181721
4422321c
5e275139
3042393d
fc00f521
1905fb14
16f005fb
132b0601
96cdf8ed
a781bbb9
0695b0e1
00370c06
f8fffe0e
d9f2e6f4
facff3e2
f400f4e2
07f80e00
0003f5f0
faff0912
fdeefb0a
e4110a1a
0dff2514
0509fa0e
160a020c
0e0201fb
11ef1405
05f7eb0d
0aff08e4
0df814f3
161509e5
14f4f54e
10022812
0310fff6
01fa0318
0714e5f6
ec07f50c
dcfdfbe6
06dce5fd
fe0e0e0d
f502fe09
6e574a2e
5158437f
eaf2e835
d1dbb9dd
271fe2c5
372b20f9
27131b20
391c0832
1a1c0b26
f6dffacf
ec07efdf
02e4f6e2
dbf1f4e6
b4fafdf0
fcc208ef
ff04e208
ea06120e
0e1e1a1f
1afb6867
0e0de5fd
f3180ff2
1001f23c
1bf605f2
1beeee44
f719011a
1b232428
1306d6fd
c800c800
c800c8c8
00bf0000
00bfbfbf
470000bf
47474700
00004700
46460046
00460046
0e000e00
0e000e0e
00570000
00575757
50000057
50505000
00005000
81810081
00810081
81008100
81008181
005a0000
005a5a5a
db00005a
dbdbdb00
0000db00
0d0d000d
000d000d
21002100
21002121
00b50000
00b5b5b5
240000b5
24242400
00002400
9e9e009e
009e009e
a800a800
a800a8a8
00b90000
00b9b9b9
c10000b9
c1c1c100
0000c100
a9a900a9
00a900a9
40004000
40004040
00810000
00818181
66000081
66666600
00006600
f3f300f3
00f300f3
cc00cc00
cc00cccc
00da0000
00dadada
960000da
96969600
00009600
c2c200c2
00c200c2
dc00dc00
dc00dcdc
00070000
00070707
81000007
81818100
00008100
aeae00ae
00ae00ae
f400f400
f400f4f4
00d90000
00d9d9d9
c70000d9
c7c7c700
0000c700
21210021
00210021
f000f000
f000f0f0
00de0000
00dedede
370000de
37373700
00003700
81810081
00810081
b900b900
b900b9b9
004d0000
004d4d4d
cf00004d
cfcfcf00
0000cf00
81810081
00810081
ef00ef00
ef00efef
00410000
00414141
3f000041
3f3f3f00
00003f00
55550055
00550055
03000300
03000303
00ec0000
00ececec
c80000ec
c8c8c800
0000c800
81810081
00810081
be00be00
be00bebe
004f0000
004f4f4f
c600004f
c6c6c600
0000c600
a5a500a5
00a500a5
c600c600
c600c6c6
00810000
00818181
ac000081
acacac00
0000ac00
b1b100b1
00b100b1
84008400
84008484
002b0000
002b2b2b
7f00002b
7f7f7f00
00007f00
b2b200b2
00b200b2
af00af00
af00afaf
00810000
00818181
ac000081
acacac00
0000ac00
caca00ca
00ca00ca
9c009c00
9c009c9c
00a60000
00a6a6a6
e40000a6
e4e4e400
0000e400
e1e100e1
00e100e1
81008100
81008181
00d10000
00d1d1d1
6b0000d1
6b6b6b00
00006b00
21210021
00210021
cf00cf00
cf00cfcf
00990000
00999999
25000099
25252500
00002500
5d5d005d
005d005d
12001200
12001212
00b80000
00b8b8b8
bc0000b8
bcbcbc00
0000bc00
c8c800c8
00c800c8
81008100
81008181
00d90000
00d9d9d9
a00000d9
a0a0a000
0000a000
91910091
00910091
44004400
44004444
00f60000
00f6f6f6
f10000f6
f1f1f100
0000f100
e9e900e9
00e900e9
64006400
64006464
00d30000
00d3d3d3
810000d3
81818100
00008100
e3e300e3
00e300e3
47004700
47004747
00c20000
00c2c2c2
670000c2
67676700
00006700
2a2a002a
002a002a
81008100
81008181
00c60000
00c6c6c6
b00000c6
b0b0b000
0000b000
83830083
00830083
35003500
35003535
00da0000
00dadada
b70000da
b7b7b700
0000b700
81810081
00810081
90009000
90009090
003e0000
003e3e3e
cf00003e
cfcfcf00
0000cf00
b5b500b5
00b500b5
f700f700
f700f7f7
006d0000
006d6d6d
ea00006d
eaeaea00
0000ea00
49490049
00490049
e000e000
e000e0e0
00540000
00545454
81000054
81818100
00008100
85850085
00850085
7f007f00
7f007f7f
00eb0000
00ebebeb
b60000eb
b6b6b600
0000b600
c0c000c0
00c000c0
be00be00
be00bebe
00d70000
00d7d7d7
020000d7
02020200
00000200
e4e400e4
00e400e4
00000086
00000024
000000e5
00000022
000000e0
00000081
000000dd
00000098
00011af8
00002f9d
00000000
00000000
00000000
00000000
00000000
00000000
00002d87
00007322
00000000
00000000
00000000
00000000
00000000
00000000
00007e3c
00004766
00000000
00000000
00000000
00000000
00000000
00000000
00009cf9
00005122
00000000
00000000
00000000
00000000
00000000
00000000
00000e50
fffffbac
00000965
fffff4f7
00000000
00000000
00000000
00000000
fffffc22
0000012b
fffffd48
fffffb8c
00000000
00000000
00000000
00000000
fffff498
fffffa45
fffff99c
000005ef
00000000
00000000
00000000
00000000
0000002f
fffffc5b
0000070d
fffffac7
00000000
00000000
00000000
00000000
043d000f
05d60080
141400fb
